<pad>	0
<unk>	0
<s>	0
</s>	0
an	-0
er	-1
▁d	-2
en	-3
at	-4
▁m	-5
as	-6
ang	-7
in	-8
▁b	-9
ak	-10
am	-11
▁s	-12
▁k	-13
al	-14
▁t	-15
ar	-16
▁p	-17
ik	-18
it	-19
ah	-20
el	-21
eng	-22
ad	-23
▁y	-24
un	-25
▁yang	-26
▁di	-27
eb	-28
itas	-29
uk	-30
vitas	-31
▁g	-32
um	-33
si	-34
ya	-35
▁r	-36
em	-37
is	-38
us	-39
kan	-40
ap	-41
or	-42
ati	-43
▁ber	-44
alam	-45
ek	-46
elati	-47
▁in	-48
et	-49
▁l	-50
on	-51
ada	-52
st	-53
ed	-54
elativitas	-55
▁per	-56
▁dan	-57
▁men	-58
ama	-59
ra	-60
▁ter	-61
ravitas	-62
ari	-63
ravitasi	-64
akan	-65
▁gravitasi	-66
engan	-67
ep	-68
ga	-69
▁dalam	-70
▁j	-71
▁E	-72
▁h	-73
▁dengan	-74
eor	-75
▁meng	-76
▁relativitas	-77
il	-78
tu	-79
nya	-80
es	-81
ika	-82
alah	-83
tuk	-84
▁seb	-85
▁mem	-86
ut	-87
atu	-88
▁ini	-89
▁dari	-90
ol	-91
▁ad	-92
eori	-93
om	-94
id	-95
ein	-96
ung	-97
eh	-98
atan	-99
inst	-100
▁Einst	-101
▁adalah	-102
▁Einstein	-103
▁ker	-104
wa	-105
sama	-106
wak	-107
angk	-108
▁bah	-109
waktu	-110
samaan	-111
▁pada	-112
ti	-113
▁(	-114
hus	-115
uan	-116
ukum	-117
husus	-118
▁teori	-119
apat	-120
angka	-121
uang	-122
▁khusus	-123
aga	-124
agai	-125
ec	-126
▁a	-127
etr	-128
ing	-129
erak	-130
idak	-131
▁tidak	-132
▁P	-133
▁ruang	-134
▁kerangka	-135
gi	-136
asi	-137
▁un	-138
ikan	-139
▁peng	-140
▁waktu	-141
ara	-142
aya	-143
per	-144
▁bahwa	-145
▁c	-146
ul	-147
▁S	-148
oleh	-149
ur	-150
ant	-151
▁N	-152
umum	-153
▁untuk	-154
▁M	-155
▁umum	-156
▁f	-157
end	-158
▁ac	-159
▁beb	-160
▁oleh	-161
▁acuan	-162
▁dapat	-163
▁persamaan	-164
adi	-165
seb	-166
▁hukum	-167
ana	-168
ersi	-169
▁kon	-170
sebut	-171
▁pengam	-172
ew	-173
ua	-174
▁R	-175
isika	-176
au	-177
sa	-178
ewt	-179
ewton	-180
▁Newton	-181
▁sebagai	-182
im	-183
ob	-184
tr	-185
atuh	-186
▁mer	-187
▁1	-188
▁D	-189
bang	-190
▁mas	-191
ersia	-192
▁jatuh	-193
ena	-194
ener	-195
▁bebas	-196
▁fisika	-197
ir	-198
tik	-199
▁at	-200
anya	-201
epatan	-202
ef	-203
ih	-204
▁A	-205
edan	-206
▁massa	-207
▁medan	-208
apa	-209
▁cah	-210
▁kec	-211
▁ten	-212
▁berg	-213
unakan	-214
▁cahaya	-215
▁tersebut	-216
enda	-217
eper	-218
gunakan	-219
▁inersia	-220
od	-221
▁19	-222
▁la	-223
▁dit	-224
entuk	-225
▁sama	-226
eperti	-227
▁B	-228
▁T	-229
uah	-230
ukan	-231
▁perc	-232
energi	-233
ip	-234
▁K	-235
aan	-236
etri	-237
▁gerak	-238
▁sebuah	-239
▁n	-240
ber	-241
uga	-242
▁ge	-243
▁pr	-244
asar	-245
jadi	-246
▁mel	-247
▁tah	-248
▁benda	-249
▁pen	-250
etrik	-251
▁akan	-252
▁juga	-253
▁pengamat	-254
uh	-255
amb	-256
sip	-257
sor	-258
▁ba	-259
asil	-260
▁ant	-261
▁dik	-262
insip	-263
tikel	-264
▁tahun	-265
isa	-266
▁ek	-267
▁si	-268
ensi	-269
▁bisa	-270
▁tensor	-271
▁Relativitas	-272
ia	-273
asan	-274
ebih	-275
edik	-276
ungan	-277
▁atau	-278
▁geom	-279
▁diper	-280
▁metrik	-281
▁bergerak	-282
▁kecepatan	-283
ok	-284
ub	-285
and	-286
ian	-287
▁ke	-288
▁sem	-289
ecara	-290
▁meny	-291
▁Dalam	-292
▁lebih	-293
artikel	-294
▁menjadi	-295
▁geometri	-296
ib	-297
up	-298
fat	-299
itu	-300
lak	-301
elah	-302
etap	-303
uatu	-304
erapa	-305
▁mend	-306
▁seperti	-307
ui	-308
bed	-309
iki	-310
▁ef	-311
enal	-312
engk	-313
▁190	-314
▁efek	-315
▁tetap	-316
FE	-317
esk	-318
jek	-319
enai	-320
▁EFE	-321
hukum	-322
obaan	-323
▁gaya	-324
▁lain	-325
▁memil	-326
▁antara	-327
pr	-328
ud	-329
▁ak	-330
ekan	-331
▁Per	-332
▁eks	-333
▁mak	-334
▁mat	-335
▁sed	-336
objek	-337
ediksi	-338
▁suatu	-339
▁secara	-340
▁prinsip	-341
▁memiliki	-342
▁mengenai	-343
▁percobaan	-344
).	-345
erh	-346
int	-347
jel	-348
▁ko	-349
▁lu	-350
mana	-351
▁diam	-352
▁mana	-353
▁satu	-354
▁telah	-355
ekanika	-356
▁energi	-357
▁digunakan	-358
▁pengamatan	-359
ab	-360
ja	-361
▁G	-362
ent	-363
epat	-364
ibat	-365
ulis	-366
adaan	-367
aling	-368
▁bagi	-369
upakan	-370
▁konst	-371
▁merek	-372
▁objek	-373
▁semua	-374
▁relati	-375
▁mekanika	-376
▁merupakan	-377
eg	-378
had	-379
▁ia	-380
ukur	-381
▁dip	-382
▁kar	-383
▁mod	-384
▁pem	-385
etika	-386
hadap	-387
ungkan	-388
entukan	-389
▁berlak	-390
▁mereka	-391
▁terhadap	-392
▁menggunakan	-393
to	-394
▁J	-395
any	-396
asa	-397
tem	-398
▁Al	-399
▁as	-400
▁ku	-401
aruh	-402
arus	-403
imen	-404
▁seh	-405
angan	-406
arkan	-407
askan	-408
cepat	-409
▁memb	-410
embang	-411
eorang	-412
▁bagai	-413
perimen	-414
▁tetapi	-415
▁partikel	-416
▁Persamaan	-417
mu	-418
▁H	-419
▁I	-420
▁v	-421
amp	-422
ila	-423
imp	-424
▁po	-425
aksi	-426
asus	-427
beda	-428
bert	-429
elom	-430
esar	-431
inya	-432
itam	-433
▁191	-434
▁Seb	-435
▁dua	-436
▁kel	-437
▁kes	-438
▁sel	-439
hasil	-440
▁atas	-441
▁maka	-442
▁pert	-443
▁sang	-444
erhana	-445
▁Teori	-446
▁dasar	-447
▁hitam	-448
▁Albert	-449
▁bentuk	-450
▁berada	-451
▁lubang	-452
▁paling	-453
▁berlaku	-454
engkungan	-455
▁eksperimen	-456
▁percepatan	-457
ch	-458
gn	-459
ju	-460
▁"	-461
▁L	-462
anc	-463
anj	-464
esa	-465
ita	-466
las	-467
▁Pr	-468
▁el	-469
aris	-470
efin	-471
ektr	-472
enis	-473
ikir	-474
ipun	-475
okal	-476
sist	-477
tang	-478
urut	-479
▁Beb	-480
▁ada	-481
▁apa	-482
▁itu	-483
▁ses	-484
▁sis	-485
dapat	-486
elesa	-487
lasik	-488
sifat	-489
▁astr	-490
▁laju	-491
▁menc	-492
▁radi	-493
antung	-494
atakan	-495
sisten	-496
▁bukan	-497
▁hasil	-498
▁kecil	-499
▁lokal	-500
▁sifat	-501
eskipun	-502
▁karena	-503
▁ketika	-504
▁klasik	-505
▁memper	-506
▁sangat	-507
▁sistem	-508
jelaskan	-509
▁berbeda	-510
▁dikenal	-511
▁ditulis	-512
▁Beberapa	-513
▁beberapa	-514
▁bagaimana	-515
▁menentukan	-516
if	-517
sk	-518
▁+	-519
bit	-520
ear	-521
eri	-522
hub	-523
isi	-524
juk	-525
lah	-526
olo	-527
str	-528
val	-529
eksi	-530
elum	-531
enar	-532
ikut	-533
ingk	-534
isti	-535
pada	-536
uant	-537
ulan	-538
umus	-539
ungk	-540
▁did	-541
▁dil	-542
▁keb	-543
▁ked	-544
▁kem	-545
▁sek	-546
▁sim	-547
alami	-548
anyak	-549
aruhi	-550
istik	-551
unjuk	-552
▁1905	-553
▁1907	-554
▁1915	-555
▁Pada	-556
▁kita	-557
▁kuat	-558
anjang	-559
▁besar	-560
▁diter	-561
▁hanya	-562
▁kuant	-563
berikan	-564
▁materi	-565
elombang	-566
hasilkan	-567
unjukkan	-568
▁disebut	-569
▁lainnya	-570
▁tentang	-571
▁bersifat	-572
▁daripada	-573
▁prediksi	-574
▁sederhana	-575
▁bergantung	-576
),	-577
aj	-578
iv	-579
of	-580
▁=	-581
▁W	-582
▁−	-583
auh	-584
emb	-585
ink	-586
mas	-587
ord	-588
rip	-589
toh	-590
usi	-591
wan	-592
▁il	-593
alui	-594
ting	-595
▁dim	-596
▁dis	-597
▁sep	-598
▁set	-599
ampak	-600
inear	-601
ontoh	-602
udian	-603
▁Jika	-604
▁alam	-605
▁berk	-606
▁jauh	-607
▁masi	-608
▁pend	-609
▁peny	-610
▁sisi	-611
▁terg	-612
eskrip	-613
ikiran	-614
istiwa	-615
ungkin	-616
▁garis	-617
▁harus	-618
▁jenis	-619
eradaan	-620
seperti	-621
▁elektr	-622
▁sedang	-623
engaruhi	-624
▁Prinsip	-625
▁konstan	-626
▁kuantum	-627
▁melalui	-628
▁pertama	-629
▁radiasi	-630
▁relativ	-631
▁kemudian	-632
▁terdapat	-633
▁gelombang	-634
▁konsisten	-635
▁peristiwa	-636
▁dijelaskan	-637
▁menunjukkan	-638
da	-639
ow	-640
pa	-641
sm	-642
μν	-643
▁C	-644
agn	-645
ali	-646
aru	-647
ern	-648
ers	-649
hit	-650
iri	-651
kal	-652
ran	-653
ski	-654
tur	-655
▁(1	-656
▁Ri	-657
▁Th	-658
▁ap	-659
▁sa	-660
▁ya	-661
alik	-662
anda	-663
anpa	-664
arik	-665
ebab	-666
gamb	-667
ihat	-668
onom	-669
stul	-670
unan	-671
unya	-672
▁Men	-673
▁kom	-674
▁non	-675
agnet	-676
atasi	-677
entum	-678
ersal	-679
inkow	-680
isasi	-681
kenal	-682
pulan	-683
sikan	-684
smolo	-685
uival	-686
uktur	-687
▁baik	-688
▁baru	-689
▁ilmu	-690
▁skal	-691
▁terl	-692
▁univ	-693
bitkan	-694
eneral	-695
ingkat	-696
stulat	-697
▁antar	-698
▁kasus	-699
▁kedua	-700
▁mempr	-701
▁model	-702
▁tanpa	-703
▁yaitu	-704
asarkan	-705
intasan	-706
omagnet	-707
omentum	-708
▁Minkow	-709
▁modern	-710
▁pendek	-711
▁sehing	-712
▁tampak	-713
elesaian	-714
▁Menurut	-715
▁artikel	-716
▁ekuival	-717
▁keadaan	-718
▁kosmolo	-719
▁penting	-720
▁relatif	-721
▁sebelum	-722
▁seorang	-723
embangkan	-724
▁Meskipun	-725
▁Minkowski	-726
▁universal	-727
▁dipercepat	-728
▁keberadaan	-729
▁memberikan	-730
▁kelengkungan	-731
▁relativistik	-732
▁elektromagnet	-733
ax	-734
ay	-735
ni	-736
ot	-737
▁2	-738
▁U	-739
ain	-740
eny	-741
esi	-742
est	-743
gab	-744
iap	-745
lik	-746
nda	-747
pun	-748
ten	-749
tif	-750
ukl	-751
wal	-752
yat	-753
▁Ar	-754
▁Ia	-755
▁da	-756
▁re	-757
ahan	-758
akah	-759
amun	-760
angg	-761
angs	-762
anta	-763
atis	-764
bila	-765
eker	-766
enom	-767
eser	-768
esik	-769
etah	-770
ilai	-771
inat	-772
masi	-773
uksi	-774
urus	-775
vari	-776
▁(19	-777
▁Max	-778
▁dat	-779
▁dir	-780
▁hal	-781
▁kek	-782
▁teg	-783
ekati	-784
▁Anda	-785
▁awal	-786
▁inti	-787
▁jika	-788
▁pern	-789
▁saat	-790
▁teor	-791
asikan	-792
bedaan	-793
efinis	-794
ekerja	-795
ematis	-796
ensial	-797
odesik	-798
▁Namun	-799
▁kerja	-800
▁koord	-801
▁lurus	-802
▁masih	-803
angsung	-804
ebabkan	-805
enomena	-806
inersia	-807
jelasan	-808
umpulan	-809
▁bagian	-810
▁bahasa	-811
▁banyak	-812
ancarkan	-813
▁apabila	-814
▁bekerja	-815
▁berikut	-816
▁koneksi	-817
▁simetri	-818
gabungkan	-819
gambarkan	-820
hubungkan	-821
▁astronom	-822
▁dilatasi	-823
▁lintasan	-824
▁momentum	-825
▁sehingga	-826
▁tegangan	-827
efinisikan	-828
▁konstanta	-829
▁koordinat	-830
▁matematis	-831
▁mendekati	-832
▁pemikiran	-833
▁dihasilkan	-834
▁pendekatan	-835
▁penjelasan	-836
cc	-837
ej	-838
ov	-839
uc	-840
uj	-841
▁F	-842
ann	-843
buk	-844
cci	-845
eks	-846
ell	-847
emp	-848
ima	-849
lan	-850
pon	-851
rat	-852
sep	-853
ter	-854
top	-855
tor	-856
ula	-857
▁Un	-858
▁al	-859
▁bi	-860
▁or	-861
▁st	-862
aham	-863
akni	-864
anan	-865
enuh	-866
erah	-867
jari	-868
okan	-869
umsi	-870
uruh	-871
well	-872
▁Ber	-873
▁Kar	-874
▁Ker	-875
▁jam	-876
▁keh	-877
▁man	-878
▁tak	-879
aikan	-880
amati	-881
ambat	-882
andar	-883
apkan	-884
ayang	-885
emann	-886
embam	-887
empat	-888
erhan	-889
ibusi	-890
lanet	-891
ponen	-892
presi	-893
tentu	-894
uatan	-895
uklir	-896
ulkan	-897
umlah	-898
vensi	-899
▁Peny	-900
▁berp	-901
▁jari	-902
▁luar	-903
akibat	-904
alikan	-905
anding	-906
anggap	-907
asukan	-908
etahui	-909
linear	-910
varian	-911
yataan	-912
▁1905,	-913
▁Ricci	-914
▁Untuk	-915
▁aktif	-916
▁dilak	-917
▁kanan	-918
▁nilai	-919
▁tanda	-920
▁tarik	-921
▁tertu	-922
▁yakni	-923
a	-924
▁	-925
n	-926
e	-927
i	-928
t	-929
r	-930
s	-931
k	-932
u	-933
m	-934
g	-935
d	-936
l	-937
b	-938
p	-939
h	-940
o	-941
y	-942
.	-943
v	-944
,	-945
c	-946
j	-947
w	-948
f	-949
E	-950
-	-951
(	-952
)	-953
1	-954
P	-955
S	-956
N	-957
M	-958
9	-959
R	-960
D	-961
A	-962
T	-963
B	-964
0	-965
K	-966
:	-967
F	-968
"	-969
5	-970
2	-971
G	-972
J	-973
+	-974
–	-975
−	-976
8	-977
H	-978
I	-979
7	-980
L	-981
W	-982
z	-983
/	-984
=	-985
C	-986
4	-987
;	-988
μ	-989
ν	-990
U	-991
x	-992
3	-993
6	-994
V	-995
