<pad>	0
<unk>	0
<s>	0
</s>	0
▁	-3.22291
.	-3.67513
an	-3.67799
,	-3.70431
▁yang	-3.81254
kan	-3.89484
▁d	-4.13209
▁di	-4.14128
a	-4.51393
▁gravitasi	-4.64847
engan	-4.68091
▁dalam	-4.74263
▁me	-4.80427
i	-4.80619
▁relativitas	-4.80729
-	-4.81934
▁se	-4.82736
nya	-4.86738
▁p	-4.87295
ada	-4.88741
▁dari	-4.92419
▁ini	-4.92422
dan	-4.95106
▁ber	-5.01924
ntuk	-5.06348
▁Einstein	-5.08856
▁adalah	-5.08926
▁meng	-5.13536
wa	-5.1518
▁bah	-5.16188
▁teori	-5.20034
▁ke	-5.23219
▁khusus	-5.24796
▁tidak	-5.28562
▁(	-5.30561
▁ruang	-5.30608
▁waktu	-5.31181
akan	-5.33159
▁ter	-5.3368
ah	-5.36788
k	-5.37435
▁u	-5.41737
▁umum	-5.48247
▁acuan	-5.50628
▁oleh	-5.50628
▁persamaan	-5.50791
▁j	-5.51108
▁dapat	-5.5181
▁hukum	-5.57349
h	-5.58458
)	-5.61049
lah	-5.66017
▁Newton	-5.66661
n	-5.70479
▁sebagai	-5.74093
t	-5.75049
▁bebas	-5.76021
angka	-5.78594
ga	-5.79612
▁fisika	-5.82258
ika	-5.82293
▁massa	-5.82396
▁inersia	-5.83085
atuh	-5.83822
▁te	-5.85117
or	-5.8519
▁P	-5.85659
▁cahaya	-5.85765
▁tersebut	-5.85907
perti	-5.86246
▁b	-5.88035
ngka	-5.89651
▁ker	-5.89912
▁D	-5.91245
▁kera	-5.92663
car	-5.93033
▁sama	-5.93153
▁men	-5.93302
▁gerak	-5.95963
m	-5.97375
▁sebu	-6.00197
▁Se	-6.00989
as	-6.03277
:	-6.05053
▁benda	-6.05344
▁su	-6.05355
▁pengamat	-6.06757
p	-6.072
▁pa	-6.08659
isa	-6.09101
▁Relativit	-6.09401
gun	-6.09677
▁tahu	-6.10556
pa	-6.13355
▁le	-6.14452
l	-6.14477
si	-6.15838
alam	-6.16917
tens	-6.17726
▁atau	-6.18829
pun	-6.19283
at	-6.20186
bi	-6.20284
da	-6.20907
gerak	-6.21053
ki	-6.21709
▁kecepatan	-6.2371
▁geometri	-6.23816
▁metrik	-6.23829
▁k	-6.25109
u	-6.26829
▁ju	-6.27891
atu	-6.28418
▁T	-6.29009
▁menjadi	-6.29086
▁antara	-6.29128
▁lu	-6.29156
▁M	-6.30084
erapa	-6.3453
bang	-6.34543
ena	-6.34561
efe	-6.40409
hukum	-6.42659
▁memili	-6.46659
▁EFE	-6.46659
▁mana	-6.47053
▁gaya	-6.47348
▁ja	-6.51558
ha	-6.53187
▁percobaan	-6.53326
▁prinsip	-6.53643
▁A	-6.54115
b	-6.56607
▁mene	-6.56964
ling	-6.60534
▁satu	-6.60957
▁apa	-6.61221
▁energi	-6.64092
▁pengamatan	-6.65065
se	-6.65161
▁mem	-6.66719
▁bagi	-6.68162
▁meru	-6.68195
▁ia	-6.68449
▁objek	-6.68675
ntang	-6.69893
ri	-6.70336
dapat	-6.70411
orang	-6.71117
energi	-6.72402
▁Be	-6.72673
berada	-6.73293
un	-6.74418
al	-6.75031
).	-6.75568
▁konstan	-6.76494
▁mereka	-6.7655
▁maka	-6.76622
▁berlaku	-6.76868
er	-6.78755
dap	-6.80023
▁semu	-6.80243
d	-6.80958
jelas	-6.83114
ris	-6.84463
laju	-6.85585
–	-6.85585
▁karena	-6.85595
▁Persamaan	-6.85599
▁diam	-6.85628
▁E	-6.85811
dua	-6.85832
tika	-6.8584
▁tetapi	-6.86039
▁partikel	-6.86326
▁meny	-6.86818
ku	-6.8729
bert	-6.89715
v	-6.91357
uh	-6.92767
▁B	-6.93214
▁Al	-6.94265
g	-6.95238
▁hitam	-6.95585
▁eksperimen	-6.95587
▁percepatan	-6.95604
▁hanya	-6.95634
eori	-6.95672
harus	-6.95785
▁G	-6.95883
▁sang	-6.95887
lalu	-6.95896
▁bentuk	-6.96456
prediksi	-6.96471
▁bagaimana	-6.96906
atan	-6.97959
atas	-6.98194
▁dasar	-6.9851
itu	-6.98797
▁itu	-6.99624
▁ada	-7.00612
sifat	-7.02519
us	-7.02583
▁beb	-7.06686
juk	-7.06696
▁kecil	-7.06696
▁klasik	-7.06696
▁sistem	-7.06696
▁lokal	-7.06696
▁bukan	-7.0671
tung	-7.06765
hubung	-7.06767
▁ditulis	-7.06809
▁berbeda	-7.06983
▁J	-7.07465
▁sa	-7.07722
▁dikenal	-7.07861
▁ak	-7.08008
sebut	-7.08526
in	-7.1026
▁hasil	-7.10563
▁"	-7.10661
▁ga	-7.11038
▁sifat	-7.11055
"	-7.11785
hasil	-7.14138
waktu	-7.15208
▁I	-7.15857
▁be	-7.15859
asi	-7.17172
▁berg	-7.17631
it	-7.18931
baik	-7.19112
▁materi	-7.19196
▁sederhana	-7.19197
▁1905	-7.19197
▁1907	-7.19197
▁1915	-7.19198
▁besar	-7.19228
▁kon	-7.19373
rbit	-7.19558
jadi	-7.19767
▁kuat	-7.19934
▁lainnya	-7.20027
▁lain	-7.2018
eristi	-7.20653
s	-7.21374
gelom	-7.2166
el	-7.21778
ita	-7.22269
ng	-7.22946
▁per	-7.23083
jari	-7.2315
aksi	-7.25139
nda	-7.25721
uga	-7.28597
tas	-7.29369
mu	-7.29846
y	-7.29856
alami	-7.30658
tak	-7.31811
▁S	-7.32176
rinsip	-7.32778
nggun	-7.32924
rat	-7.32935
▁pen	-7.333
/	-7.33482
=	-7.33482
deskripsi	-7.33482
▁kemudian	-7.33482
akibat	-7.33482
▁pertama	-7.33483
▁kuantum	-7.33484
model	-7.33498
▁radiasi	-7.33502
artikel	-7.33615
asus	-7.33779
▁sedang	-7.33813
▁jenis	-7.33891
laku	-7.3402
▁konsisten	-7.34506
ap	-7.34698
itas	-7.34791
tasi	-7.35187
▁ya	-7.35434
ik	-7.35658
▁c	-7.36647
sisi	-7.37698
▁masi	-7.38438
▁Ke	-7.39117
kenal	-7.39811
emikir	-7.40158
ir	-7.4157
▁mu	-7.41778
rumus	-7.42446
ta	-7.43447
ukur	-7.44134
▁memper	-7.45041
definisi	-7.45398
2	-7.45742
dasar	-7.458
inersia	-7.46135
ngan	-7.47684
▁tan	-7.48224
▁pe	-7.48338
▁Mes	-7.48459
ak	-7.48828
▁a	-7.48979
▁tetap	-7.49297
ensi	-7.49372
enuru	-7.49422
rus	-7.49998
4	-7.50149
▁universal	-7.50149
;	-7.50149
μν	-7.50149
▁Minkowski	-7.50149
▁ekuivalen	-7.50149
▁modern	-7.50149
▁relatif	-7.50149
▁relativistik	-7.50149
▁penting	-7.50149
▁baru	-7.50149
▁tampak	-7.50154
mbangkan	-7.50156
liha	-7.5017
▁ilmu	-7.50174
▁kedua	-7.50193
▁non	-7.50335
▁memba	-7.50347
▁memprediksi	-7.50401
tiap	-7.50463
▁kelengkungan	-7.50518
▁sehingga	-7.50597
c	-7.50714
bil	-7.50961
▁dipercepat	-7.51092
▁re	-7.51198
▁pendek	-7.51243
▁dite	-7.52146
banyak	-7.53321
berik	-7.53399
▁kerja	-7.53982
▁menca	-7.54049
ar	-7.55165
pengaruh	-7.55377
▁selam	-7.5638
ut	-7.56833
▁mela	-7.58177
▁Di	-7.59253
▁bi	-7.6099
gambar	-7.61054
▁K	-7.61406
di	-7.63189
tuh	-7.63721
linear	-7.6483
▁alam	-7.6515
kerja	-7.6592
▁dila	-7.67083
▁m	-7.67623
yang	-7.67641
ali	-7.68057
bung	-7.69888
▁membe	-7.69919
▁simetri	-7.70048
▁Ha	-7.70145
▁Namun	-7.70149
▁U	-7.70149
▁koordinat	-7.70149
▁matematis	-7.70149
asumsi	-7.70149
▁astronom	-7.70165
▁tarik	-7.70167
▁koneksi	-7.70178
▁dis	-7.70237
masuk	-7.70241
▁lin	-7.7025
bukti	-7.70506
tif	-7.70582
▁tanda	-7.70583
▁hal	-7.70706
▁W	-7.70706
▁momentum	-7.70707
inti	-7.70776
masing	-7.71342
▁g	-7.7178
ndekat	-7.71815
▁+	-7.72232
▁ti	-7.73475
nila	-7.74908
wan	-7.75527
▁2	-7.75779
9	-7.7611
mpul	-7.76312
te	-7.78254
ti	-7.80433
asa	-7.80536
mua	-7.82401
1	-7.87062
ni	-7.87844
▁Me	-7.88368
engaruh	-7.88801
lai	-7.89172
▁l	-7.89341
8	-7.89902
yak	-7.90007
nyebab	-7.90226
benar	-7.90432
panjang	-7.90645
−	-7.90658
amati	-7.93327
kat	-7.94006
beda	-7.94473
lengkungan	-7.94575
ksi	-7.94583
▁Pe	-7.94596
ulis	-7.94602
▁diter	-7.94921
▁elektromagneti	-7.95035
emp	-7.95037
ipe	-7.95062
str	-7.95109
▁Le	-7.95149
3	-7.95149
Riemann	-7.95149
ferensi	-7.95149
▁Maxwell	-7.95149
▁Ricci	-7.95149
▁astrofisika	-7.95149
▁diperoleh	-7.95149
▁komponen	-7.95149
▁lembam	-7.95149
▁nuklir	-7.95149
▁standar	-7.95149
banding	-7.95149
planet	-7.95149
sebab	-7.95149
form	-7.95149
▁perbedaan	-7.95151
erubah	-7.95154
▁dimensi	-7.95159
▁The	-7.9516
▁mengembangkan	-7.95166
hitung	-7.95166
ibu	-7.95168
top	-7.95171
▁mengatakan	-7.95173
▁menyatakan	-7.95177
▁Kar	-7.95234
sesuai	-7.95282
ekspresi	-7.9531
ima	-7.95385
▁Ker	-7.95451
▁postulat	-7.95487
▁memungkin	-7.95829
▁langsung	-7.95885
▁fenomena	-7.95885
▁geodesik	-7.95885
uc	-7.96003
angg	-7.96035
▁dikali	-7.96371
ok	-7.96453
o	-7.96501
nyata	-7.96724
▁va	-7.9692
▁menuru	-7.96946
impul	-7.9702
▁diamati	-7.97026
▁−	-7.97529
▁memu	-7.97845
▁dipan	-7.98037
▁ting	-7.98996
ski	-7.99518
lain	-7.99685
▁1	-7.99709
▁panjang	-7.99863
atur	-8.00099
tu	-8.00179
r	-8.00583
lnya	-8.01074
ran	-8.01629
ed	-8.0205
enjelas	-8.02906
dah	-8.037
▁bersama	-8.04162
▁si	-8.07026
▁meman	-8.07157
▁peng	-8.07241
bagaimana	-8.09937
anc	-8.10704
ntu	-8.13947
▁da	-8.15783
re	-8.17227
▁dip	-8.17282
cepat	-8.19503
▁dalamnya	-8.1981
uji	-8.20599
bahas	-8.20733
me	-8.2152
▁mende	-8.22656
▁terg	-8.23356
tau	-8.23941
dia	-8.24002
+	-8.24118
▁is	-8.24357
gaya	-8.24626
rtikel	-8.24752
anyak	-8.2537
▁t	-8.25973
aya	-8.26273
▁Sebagai	-8.26524
ja	-8.26675
rang	-8.27336
▁antar	-8.27374
▁awal	-8.2748
mungkin	-8.27542
▁rum	-8.27742
▁no	-8.27843
balik	-8.27852
dik	-8.28115
▁sebelum	-8.2814
ide	-8.28152
ikut	-8.28179
▁berikut	-8.28247
tor	-8.28285
▁kua	-8.28369
▁kosmologi	-8.28391
▁skala	-8.28424
ode	-8.2846
6	-8.28482
elesaikan	-8.28482
▁Lorentz	-8.28482
▁Schwarzschild	-8.28482
▁berkembang	-8.28482
▁dikonfirmasi	-8.28482
▁listrik	-8.28482
▁sepenuhnya	-8.28482
▁signifikan	-8.28482
▁bawah	-8.28482
▁pembe	-8.28482
▁sendiri	-8.28483
coc	-8.28483
▁dunia	-8.28483
▁berotasi	-8.28483
▁diketahui	-8.28485
sner	-8.28485
▁kesalahan	-8.28488
perluas	-8.28488
rint	-8.28488
▁Hasil	-8.28489
▁eks	-8.2849
ederhanakan	-8.28491
▁invarian	-8.28494
▁lemah	-8.28494
dina	-8.28496
pilih	-8.285
▁melengkung	-8.285
tron	-8.28506
lensa	-8.28511
20	-8.28524
▁merambat	-8.28532
▁skalar	-8.2854
▁tambahan	-8.28553
▁posisi	-8.28554
▁kosmologis	-8.28573
olo	-8.28581
▁akura	-8.28586
▁Kasus	-8.28639
fs	-8.2866
elajar	-8.28719
of	-8.28796
▁data	-8.28813
▁diabaikan	-8.28897
10	-8.28928
lo	-8.29015
ungan	-8.29109
▁para	-8.29117
▁perta	-8.29203
▁mendasar	-8.2924
▁tertu	-8.29254
▁+)	-8.29265
▁sehi	-8.29376
▁sebelumnya	-8.29405
▁tertentu	-8.29559
▁batas	-8.29644
▁Per	-8.2994
▁penyelesaian	-8.3005
▁ko	-8.30663
▁po	-8.30713
ll	-8.30736
N	-8.3105
▁struktur	-8.31448
▁hilang	-8.31449
ngkap	-8.31507
▁salah	-8.3156
teks	-8.3158
▁sesu	-8.31596
▁−)	-8.31648
▁e	-8.31716
dang	-8.3186
likasikan	-8.31913
▁mer	-8.31923
men	-8.3271
▁Sa	-8.32787
generalisasi	-8.33061
seku	-8.33078
tat	-8.33559
duk	-8.33848
isan	-8.34001
le	-8.34466
▁teras	-8.35036
kali	-8.35352
asar	-8.35427
pre	-8.35447
▁benar	-8.35457
ang	-8.35465
gala	-8.35838
ember	-8.36173
lasan	-8.36258
▁gambar	-8.3715
▁mengga	-8.3717
tensi	-8.3785
".	-8.38739
▁definisi	-8.39675
▁dita	-8.39866
▁ka	-8.40034
mi	-8.40204
eli	-8.41565
f	-8.41732
samaan	-8.4483
ol	-8.45967
eb	-8.47071
usu	-8.47493
isi	-8.48032
iri	-8.48115
ra	-8.5096
▁teorinya	-8.51053
ing	-8.51543
maks	-8.52524
ro	-8.5339
takan	-8.5352
ud	-8.53717
geser	-8.54155
ulan	-8.55561
on	-8.56273
um	-8.57023
▁diper	-8.57028
▁bo	-8.57455
if	-8.58127
pul	-8.60543
▁de	-8.6089
tik	-8.60974
e	-8.61027
kum	-8.61039
▁F	-8.61663
89	-8.62838
mber	-8.63275
emaham	-8.63329
erak	-8.64678
▁contoh	-8.66076
sar	-8.66644
lak	-8.67323
ip	-8.68065
erkait	-8.6986
▁ma	-8.71189
setaraan	-8.71578
patan	-8.72201
sa	-8.7249
ne	-8.72846
su	-8.72902
▁tergan	-8.73269
seluruh	-8.73319
hilang	-8.7382
struktur	-8.73852
konsisten	-8.74291
J	-8.74359
T	-8.74384
▁No	-8.74421
objek	-8.74449
benda	-8.74506
bebas	-8.74528
khusus	-8.7455
persamaan	-8.74613
erhana	-8.747
satu	-8.7484
et	-8.74905
▁kontr	-8.75047
libat	-8.7578
ko	-8.76643
enyelesaian	-8.77333
bagai	-8.77404
▁dike	-8.77481
ot	-8.77534
belum	-8.77554
ngg	-8.77598
▁aba	-8.7761
0	-8.7769
ostulat	-8.77718
ket	-8.77778
▁biasa	-8.7778
erta	-8.77866
und	-8.78031
kspresi	-8.78119
arik	-8.7819
ny	-8.7831
tambah	-8.78368
▁radi	-8.78402
lektro	-8.78439
▁trans	-8.78475
▁191	-8.78476
coba	-8.7848
engembang	-8.7848
jut	-8.78482
▁Akibatnya	-8.78482
▁Ruang	-8.78482
▁Wheeler	-8.78482
▁lagi	-8.78482
▁matahari	-8.78482
▁mikrokuasar	-8.78482
▁penyimpangan	-8.78482
▁semesta	-8.78482
▁Gravitasi	-8.78482
macam	-8.78482
vektor	-8.78482
▁lolos	-8.78482
syarat	-8.78482
▁aktual	-8.78482
turun	-8.78483
▁diperhitungkan	-8.78483
tamanya	-8.78484
distorsi	-8.78485
▁Jadi	-8.78486
▁kekekalan	-8.78488
▁vol	-8.78493
▁hamp	-8.78495
▁wajar	-8.78496
▁diterapkan	-8.78512
▁(199	-8.78515
▁angkasa	-8.78523
▁fun	-8.78526
▁ele	-8.78537
pikir	-8.78538
susun	-8.78542
ation	-8.78548
embalik	-8.78556
cat	-8.78556
▁diperc	-8.78566
▁manif	-8.78579
struk	-8.7859
▁datar	-8.78602
▁Bergerak	-8.7862
lid	-8.78632
jawab	-8.78639
ich	-8.7873
lektromagnetisme	-8.7874
▁berkontraksi	-8.78767
▁simetris	-8.78777
▁berputar	-8.78795
▁bertranslasi	-8.78795
▁Contohnya	-8.78851
▁nol	-8.78951
▁lingk	-8.79001
ins	-8.7903
▁bes	-8.79088
nom	-8.79112
dut	-8.79173
▁Pem	-8.79221
▁pengga	-8.79286
ubung	-8.79408
▁biasanya	-8.79488
▁mengukurnya	-8.7949
▁terbalik	-8.79501
satunya	-8.79502
▁fisikawan	-8.79596
rusia	-8.79659
▁berpe	-8.79862
ersi	-8.79947
▁kom	-8.80068
▁C	-8.8007
▁berikutnya	-8.80151
▁awalnya	-8.80152
▁Sep	-8.80233
▁mengukur	-8.80297
rsia	-8.80356
▁inter	-8.80373
▁identi	-8.80435
▁tinggi	-8.80436
▁lepas	-8.80446
▁konsep	-8.80472
▁setara	-8.80525
▁seka	-8.80596
▁intens	-8.80801
arah	-8.80877
varian	-8.81133
libatkan	-8.81257
val	-8.81469
▁kata	-8.8186
▁keduanya	-8.82203
▁berhasil	-8.82926
▁en	-8.83383
▁seluruh	-8.83918
▁ne	-8.84057
▁ren	-8.84204
▁Th	-8.84328
▁teor	-8.85051
▁mengu	-8.85454
ord	-8.85693
▁mengganti	-8.85888
1.	-8.87107
uku	-8.87332
▁sin	-8.87773
erambat	-8.88189
▁berta	-8.88486
eV	-8.888
▁8	-8.90796
▁mak	-8.90887
▁Mi	-8.9129
cu	-8.91751
▁seja	-8.91765
▁o	-8.92195
contohnya	-8.92591
pal	-8.93131
im	-8.93378
per	-8.94332
percepat	-8.94482
pis	-8.94549
▁linear	-8.95769
▁In	-8.96397
apa	-8.97276
▁(198	-8.97693
salah	-8.97901
ul	-8.99249
ka	-8.99664
va	-8.9971
▁in	-9.00012
▁ukur	-9.00229
▁Fi	-9.0069
▁diri	-9.02223
mana	-9.04162
ilaku	-9.04253
akt	-9.05788
elip	-9.06693
▁alami	-9.10039
▁gese	-9.1047
umus	-9.13779
kuat	-9.1685
erkenal	-9.17595
lang	-9.19085
lkan	-9.22952
kro	-9.23816
gar	-9.25481
▁orang	-9.31639
eo	-9.31714
▁Ber	-9.34802
▁ala	-9.3493
lama	-9.35002
▁menc	-9.3765
▁(19	-9.40868
▁tah	-9.46925
en	-9.51693
jar	-9.53613
elom	-9.55595
erlu	-9.55641
V	-9.55892
ambat	-9.5757
rod	-9.59577
is	-9.61273
gantikan	-9.61602
eneralisasi	-9.61871
es	-9.62384
ara	-9.62971
bentuk	-9.62995
isti	-9.63154
erja	-9.63375
rediksi	-9.63452
diran	-9.65182
plikasi	-9.65358
emuka	-9.65528
▁terp	-9.66
eometri	-9.68291
aham	-9.68455
setara	-9.69068
uat	-9.69577
ngaruh	-9.70539
sama	-9.71319
▁meme	-9.71628
varia	-9.72181
arti	-9.72221
gra	-9.72624
▁menge	-9.73016
ume	-9.73455
▁memb	-9.73517
▁Te	-9.73551
konsep	-9.73654
C	-9.73654
tinggi	-9.73658
lepas	-9.73662
identi	-9.73664
inter	-9.73915
tertentu	-9.74107
teras	-9.74165
F	-9.74206
Meng	-9.74228
fenomena	-9.74308
geodesik	-9.74308
langsung	-9.74309
ompo	-9.74331
w	-9.74341
▁keti	-9.74342
momentum	-9.74422
W	-9.74422
sebu	-9.74469
sehingga	-9.74494
jenis	-9.74545
M	-9.74573
G	-9.74628
berg	-9.74648
E	-9.7465
S	-9.74711
dipercepat	-9.74715
massa	-9.74769
ruang	-9.74787
relativitas	-9.74798
ercepat	-9.74822
enurun	-9.74928
penyelesaian	-9.75003
dite	-9.75107
metrik	-9.75125
▁terbuk	-9.75868
diri	-9.76023
▁bagaiman	-9.76278
ren	-9.76322
omb	-9.76572
the	-9.76765
ks	-9.76928
fikasi	-9.77132
▁har	-9.77224
etik	-9.7731
ens	-9.77382
▁merek	-9.77489
▁Contoh	-9.77547
demi	-9.77696
translasi	-9.77707
▁General	-9.77753
emiki	-9.77776
putar	-9.77811
engamat	-9.77812
gera	-9.77832
uge	-9.77843
etrik	-9.78041
enis	-9.78155
des	-9.78228
fest	-9.78243
▁relativit	-9.78262
oneksi	-9.78292
▁Arti	-9.7831
▁ilm	-9.78341
lay	-9.78354
stronom	-9.78361
plik	-9.78367
▁Seba	-9.78373
truktur	-9.78389
elengkung	-9.78401
mod	-9.78409
amb	-9.7841
bjek	-9.78426
ema	-9.78434
ampak	-9.7844
ksperimen	-9.78458
agia	-9.78461
5	-9.78461
▁190	-9.78471
etahui	-9.78471
7	-9.78477
▁general	-9.78477
▁Re	-9.78481
rokuasar	-9.78482
▁Max	-9.78482
▁kuant	-9.78485
▁Part	-9.78493
x	-11.0436
U	-11.0437
ν	-11.0438
μ	-11.0439
z	-11.044
L	-11.0441
I	-11.0442
H	-11.0443
K	-11.0444
B	-11.0445
A	-11.0446
D	-11.0447
R	-11.0448
P	-11.0449
(	-11.045
j	-11.0451
